{
    "activation_encodings": {
        "z": [
            {
                "bitwidth": 8,
                "max": 2.1876168251037598,
                "min": -1.9141647815704346,
                "offset": 119,
                "scale": 0.016085417941212654
            }
        ],
        "1308": [
            {
                "bitwidth": 8,
                "max": 6.627567291259766,
                "min": 0.0,
                "offset": 0,
                "scale": 0.025990460067987442
            }
        ],
        "x": [
            {
                "bitwidth": 8,
                "max": 2.2243146896362305,
                "min": -1.9158329963684082,
                "offset": 118,
                "scale": 0.016235873103141785
            }
        ],
        "1476": [
            {
                "bitwidth": 8,
                "max": 6.054627418518066,
                "min": 0.0,
                "offset": 0,
                "scale": 0.023743636906147003
            }
        ],
        "493": [
            {
                "bitwidth": 8,
                "max": 6.627567291259766,
                "min": 0.0,
                "offset": 0,
                "scale": 0.025990460067987442
            }
        ],
        "781": [
            {
                "bitwidth": 8,
                "max": 6.054627418518066,
                "min": 0.0,
                "offset": 0,
                "scale": 0.023743636906147003
            }
        ],
        "1311": [
            {
                "bitwidth": 8,
                "max": 5.014538764953613,
                "min": 0.0,
                "offset": 0,
                "scale": 0.019664857536554337
            }
        ],
        "1479": [
            {
                "bitwidth": 8,
                "max": 4.865403175354004,
                "min": 0.0,
                "offset": 0,
                "scale": 0.019080013036727905
            }
        ],
        "496": [
            {
                "bitwidth": 8,
                "max": 5.014538764953613,
                "min": 0.0,
                "offset": 0,
                "scale": 0.019664857536554337
            }
        ],
        "784": [
            {
                "bitwidth": 8,
                "max": 4.865403175354004,
                "min": 0.0,
                "offset": 0,
                "scale": 0.019080013036727905
            }
        ],
        "1314": [
            {
                "bitwidth": 8,
                "max": 4.945839881896973,
                "min": 0.0,
                "offset": 0,
                "scale": 0.01939545013010502
            }
        ],
        "1482": [
            {
                "bitwidth": 8,
                "max": 4.7576375007629395,
                "min": 0.0,
                "offset": 0,
                "scale": 0.018657401204109192
            }
        ],
        "499": [
            {
                "bitwidth": 8,
                "max": 4.945839881896973,
                "min": 0.0,
                "offset": 0,
                "scale": 0.01939545013010502
            }
        ],
        "787": [
            {
                "bitwidth": 8,
                "max": 4.7576375007629395,
                "min": 0.0,
                "offset": 0,
                "scale": 0.018657401204109192
            }
        ],
        "500": [
            {
                "bitwidth": 8,
                "max": 4.945839881896973,
                "min": 0.0,
                "offset": 0,
                "scale": 0.01939545013010502
            }
        ],
        "788": [
            {
                "bitwidth": 8,
                "max": 4.7576375007629395,
                "min": 0.0,
                "offset": 0,
                "scale": 0.018657401204109192
            }
        ],
        "1317": [
            {
                "bitwidth": 8,
                "max": 7.543448448181152,
                "min": -6.002885341644287,
                "offset": 113,
                "scale": 0.053122878074645996
            }
        ],
        "1485": [
            {
                "bitwidth": 8,
                "max": 6.994030952453613,
                "min": -5.391232490539551,
                "offset": 111,
                "scale": 0.048569660633802414
            }
        ],
        "1320": [
            {
                "bitwidth": 8,
                "max": 8.595064163208008,
                "min": -9.080268859863281,
                "offset": 131,
                "scale": 0.06931503117084503
            }
        ],
        "1488": [
            {
                "bitwidth": 8,
                "max": 7.831747055053711,
                "min": -8.2738618850708,
                "offset": 131,
                "scale": 0.06315924972295761
            }
        ],
        "505": [
            {
                "bitwidth": 8,
                "max": 8.595064163208008,
                "min": -9.080268859863281,
                "offset": 131,
                "scale": 0.06931503117084503
            }
        ],
        "793": [
            {
                "bitwidth": 8,
                "max": 7.831747055053711,
                "min": -8.2738618850708,
                "offset": 131,
                "scale": 0.06315924972295761
            }
        ],
        "506": [
            {
                "bitwidth": 8,
                "max": 10.337312698364258,
                "min": -8.626821517944336,
                "offset": 116,
                "scale": 0.0743691548705101
            }
        ],
        "794": [
            {
                "bitwidth": 8,
                "max": 9.597818374633789,
                "min": -7.759938716888428,
                "offset": 114,
                "scale": 0.06806963682174683
            }
        ],
        "1323": [
            {
                "bitwidth": 8,
                "max": 13.661826133728027,
                "min": 0.0,
                "offset": 0,
                "scale": 0.0535757876932621
            }
        ],
        "1338": [
            {
                "bitwidth": 8,
                "max": 4.0537238121032715,
                "min": -4.350337505340576,
                "offset": 132,
                "scale": 0.03295710310339928
            }
        ],
        "1491": [
            {
                "bitwidth": 8,
                "max": 11.600441932678223,
                "min": 0.0,
                "offset": 0,
                "scale": 0.04549193009734154
            }
        ],
        "1506": [
            {
                "bitwidth": 8,
                "max": 3.977404832839966,
                "min": -4.201935768127441,
                "offset": 131,
                "scale": 0.03207584470510483
            }
        ],
        "509": [
            {
                "bitwidth": 8,
                "max": 13.661826133728027,
                "min": 0.0,
                "offset": 0,
                "scale": 0.0535757876932621
            }
        ],
        "1341": [
            {
                "bitwidth": 8,
                "max": 7.569553852081299,
                "min": -9.512182235717773,
                "offset": 142,
                "scale": 0.06698720157146454
            }
        ],
        "797": [
            {
                "bitwidth": 8,
                "max": 11.600441932678223,
                "min": 0.0,
                "offset": 0,
                "scale": 0.04549193009734154
            }
        ],
        "1509": [
            {
                "bitwidth": 8,
                "max": 7.148432731628418,
                "min": -8.43148422241211,
                "offset": 138,
                "scale": 0.06109771504998207
            }
        ],
        "1326": [
            {
                "bitwidth": 8,
                "max": 33.07444763183594,
                "min": 0.0,
                "offset": 0,
                "scale": 0.12970371544361115
            }
        ],
        "1494": [
            {
                "bitwidth": 8,
                "max": 26.958152770996094,
                "min": 0.0,
                "offset": 0,
                "scale": 0.10571824759244919
            }
        ],
        "512": [
            {
                "bitwidth": 8,
                "max": 33.07444763183594,
                "min": 0.0,
                "offset": 0,
                "scale": 0.12970371544361115
            }
        ],
        "800": [
            {
                "bitwidth": 8,
                "max": 26.958152770996094,
                "min": 0.0,
                "offset": 0,
                "scale": 0.10571824759244919
            }
        ],
        "513": [
            {
                "bitwidth": 8,
                "max": 33.07444763183594,
                "min": 0.0,
                "offset": 0,
                "scale": 0.12970371544361115
            }
        ],
        "801": [
            {
                "bitwidth": 8,
                "max": 26.958152770996094,
                "min": 0.0,
                "offset": 0,
                "scale": 0.10571824759244919
            }
        ],
        "1329": [
            {
                "bitwidth": 8,
                "max": 9.132649421691895,
                "min": -10.274230003356934,
                "offset": 135,
                "scale": 0.07610540837049484
            }
        ],
        "1497": [
            {
                "bitwidth": 8,
                "max": 8.592076301574707,
                "min": -8.659730911254883,
                "offset": 128,
                "scale": 0.06765414774417877
            }
        ],
        "1332": [
            {
                "bitwidth": 8,
                "max": 8.014886856079102,
                "min": -10.39769172668457,
                "offset": 144,
                "scale": 0.07220619171857834
            }
        ],
        "1500": [
            {
                "bitwidth": 8,
                "max": 7.552047252655029,
                "min": -9.19379711151123,
                "offset": 140,
                "scale": 0.06566997617483139
            }
        ],
        "1335": [
            {
                "bitwidth": 8,
                "max": 7.569553852081299,
                "min": -9.512182235717773,
                "offset": 142,
                "scale": 0.06698720157146454
            }
        ],
        "1503": [
            {
                "bitwidth": 8,
                "max": 7.148432731628418,
                "min": -8.43148422241211,
                "offset": 138,
                "scale": 0.06109771504998207
            }
        ],
        "520": [
            {
                "bitwidth": 8,
                "max": 7.569553852081299,
                "min": -9.512182235717773,
                "offset": 142,
                "scale": 0.06698720157146454
            }
        ],
        "808": [
            {
                "bitwidth": 8,
                "max": 7.148432731628418,
                "min": -8.43148422241211,
                "offset": 138,
                "scale": 0.06109771504998207
            }
        ],
        "525": [
            {
                "bitwidth": 8,
                "max": 7.705877780914307,
                "min": -10.157748222351074,
                "offset": 145,
                "scale": 0.07005343586206436
            }
        ],
        "813": [
            {
                "bitwidth": 8,
                "max": 7.427803039550781,
                "min": -9.042542457580566,
                "offset": 140,
                "scale": 0.06458958983421326
            }
        ],
        "1344": [
            {
                "bitwidth": 8,
                "max": 6.356740474700928,
                "min": 0.0,
                "offset": 0,
                "scale": 0.024928394705057144
            }
        ],
        "1512": [
            {
                "bitwidth": 8,
                "max": 5.724651336669922,
                "min": 0.0,
                "offset": 0,
                "scale": 0.022449612617492676
            }
        ],
        "528": [
            {
                "bitwidth": 8,
                "max": 6.356740474700928,
                "min": 0.0,
                "offset": 0,
                "scale": 0.024928394705057144
            }
        ],
        "816": [
            {
                "bitwidth": 8,
                "max": 5.724651336669922,
                "min": 0.0,
                "offset": 0,
                "scale": 0.022449612617492676
            }
        ],
        "1347": [
            {
                "bitwidth": 8,
                "max": 7.466435432434082,
                "min": 0.0,
                "offset": 0,
                "scale": 0.02928013913333416
            }
        ],
        "1515": [
            {
                "bitwidth": 8,
                "max": 6.365124702453613,
                "min": 0.0,
                "offset": 0,
                "scale": 0.02496127411723137
            }
        ],
        "531": [
            {
                "bitwidth": 8,
                "max": 7.466435432434082,
                "min": 0.0,
                "offset": 0,
                "scale": 0.02928013913333416
            }
        ],
        "819": [
            {
                "bitwidth": 8,
                "max": 6.365124702453613,
                "min": 0.0,
                "offset": 0,
                "scale": 0.02496127411723137
            }
        ],
        "532": [
            {
                "bitwidth": 8,
                "max": 7.466435432434082,
                "min": 0.0,
                "offset": 0,
                "scale": 0.02928013913333416
            }
        ],
        "820": [
            {
                "bitwidth": 8,
                "max": 6.365124702453613,
                "min": 0.0,
                "offset": 0,
                "scale": 0.02496127411723137
            }
        ],
        "1350": [
            {
                "bitwidth": 8,
                "max": 4.173801898956299,
                "min": -7.522017002105713,
                "offset": 164,
                "scale": 0.04586595669388771
            }
        ],
        "1518": [
            {
                "bitwidth": 8,
                "max": 3.8203916549682617,
                "min": -7.250061511993408,
                "offset": 167,
                "scale": 0.043413542211055756
            }
        ],
        "1353": [
            {
                "bitwidth": 8,
                "max": 7.705877780914307,
                "min": -10.157748222351074,
                "offset": 145,
                "scale": 0.07005343586206436
            }
        ],
        "1521": [
            {
                "bitwidth": 8,
                "max": 7.427803039550781,
                "min": -9.042542457580566,
                "offset": 140,
                "scale": 0.06458958983421326
            }
        ],
        "537": [
            {
                "bitwidth": 8,
                "max": 7.705877780914307,
                "min": -10.157748222351074,
                "offset": 145,
                "scale": 0.07005343586206436
            }
        ],
        "825": [
            {
                "bitwidth": 8,
                "max": 7.427803039550781,
                "min": -9.042542457580566,
                "offset": 140,
                "scale": 0.06458958983421326
            }
        ],
        "538": [
            {
                "bitwidth": 8,
                "max": 10.219575881958008,
                "min": -11.141013145446777,
                "offset": 133,
                "scale": 0.08376701921224594
            }
        ],
        "826": [
            {
                "bitwidth": 8,
                "max": 9.638427734375,
                "min": -10.507466316223145,
                "offset": 133,
                "scale": 0.07900350540876389
            }
        ],
        "1356": [
            {
                "bitwidth": 8,
                "max": 10.387338638305664,
                "min": 0.0,
                "offset": 0,
                "scale": 0.040734659880399704
            }
        ],
        "1371": [
            {
                "bitwidth": 8,
                "max": 4.8487138748168945,
                "min": -4.9641594886779785,
                "offset": 129,
                "scale": 0.038481857627630234
            }
        ],
        "1524": [
            {
                "bitwidth": 8,
                "max": 9.77484130859375,
                "min": 0.0,
                "offset": 0,
                "scale": 0.03833271190524101
            }
        ],
        "1539": [
            {
                "bitwidth": 8,
                "max": 4.553369998931885,
                "min": -5.286539554595947,
                "offset": 137,
                "scale": 0.03858787938952446
            }
        ],
        "541": [
            {
                "bitwidth": 8,
                "max": 10.387338638305664,
                "min": 0.0,
                "offset": 0,
                "scale": 0.040734659880399704
            }
        ],
        "1374": [
            {
                "bitwidth": 8,
                "max": 8.136421203613281,
                "min": -7.008012294769287,
                "offset": 118,
                "scale": 0.059389933943748474
            }
        ],
        "829": [
            {
                "bitwidth": 8,
                "max": 9.77484130859375,
                "min": 0.0,
                "offset": 0,
                "scale": 0.03833271190524101
            }
        ],
        "1542": [
            {
                "bitwidth": 8,
                "max": 8.219409942626953,
                "min": -6.43757963180542,
                "offset": 112,
                "scale": 0.057478390634059906
            }
        ],
        "1359": [
            {
                "bitwidth": 8,
                "max": 15.769838333129883,
                "min": 0.0,
                "offset": 0,
                "scale": 0.061842504888772964
            }
        ],
        "1527": [
            {
                "bitwidth": 8,
                "max": 13.878280639648438,
                "min": 0.0,
                "offset": 0,
                "scale": 0.054424628615379333
            }
        ],
        "544": [
            {
                "bitwidth": 8,
                "max": 15.769838333129883,
                "min": 0.0,
                "offset": 0,
                "scale": 0.061842504888772964
            }
        ],
        "832": [
            {
                "bitwidth": 8,
                "max": 13.878280639648438,
                "min": 0.0,
                "offset": 0,
                "scale": 0.054424628615379333
            }
        ],
        "545": [
            {
                "bitwidth": 8,
                "max": 15.769838333129883,
                "min": 0.0,
                "offset": 0,
                "scale": 0.061842504888772964
            }
        ],
        "833": [
            {
                "bitwidth": 8,
                "max": 13.878280639648438,
                "min": 0.0,
                "offset": 0,
                "scale": 0.054424628615379333
            }
        ],
        "1362": [
            {
                "bitwidth": 8,
                "max": 15.050498962402344,
                "min": -5.363741874694824,
                "offset": 67,
                "scale": 0.0800558477640152
            }
        ],
        "1530": [
            {
                "bitwidth": 8,
                "max": 14.533164978027344,
                "min": -4.471743106842041,
                "offset": 60,
                "scale": 0.07452905178070068
            }
        ],
        "550": [
            {
                "bitwidth": 8,
                "max": 2.4130022525787354,
                "min": -1.1853344440460205,
                "offset": 84,
                "scale": 0.014111124910414219
            }
        ],
        "838": [
            {
                "bitwidth": 8,
                "max": 1.954543113708496,
                "min": -1.012174129486084,
                "offset": 87,
                "scale": 0.01163418497890234
            }
        ],
        "556": [
            {
                "bitwidth": 8,
                "max": 2.4130022525787354,
                "min": -1.1853344440460205,
                "offset": 84,
                "scale": 0.014111124910414219
            }
        ],
        "844": [
            {
                "bitwidth": 8,
                "max": 1.954543113708496,
                "min": -1.012174129486084,
                "offset": 87,
                "scale": 0.01163418497890234
            }
        ],
        "557": [
            {
                "bitwidth": 8,
                "max": 0.9816744923591614,
                "min": 0.0,
                "offset": 0,
                "scale": 0.0038497038185596466
            }
        ],
        "845": [
            {
                "bitwidth": 8,
                "max": 1.0085177421569824,
                "min": 0.0,
                "offset": 0,
                "scale": 0.0039549716748297215
            }
        ],
        "558": [
            {
                "bitwidth": 8,
                "max": 0.9816744923591614,
                "min": 0.0,
                "offset": 0,
                "scale": 0.0038497038185596466
            }
        ],
        "846": [
            {
                "bitwidth": 8,
                "max": 1.0085177421569824,
                "min": 0.0,
                "offset": 0,
                "scale": 0.0039549716748297215
            }
        ],
        "559": [
            {
                "bitwidth": 8,
                "max": 0.904962956905365,
                "min": -1.0673922300338745,
                "offset": 138,
                "scale": 0.007734726183116436
            }
        ],
        "847": [
            {
                "bitwidth": 8,
                "max": 0.9330134391784668,
                "min": -1.2298812866210938,
                "offset": 145,
                "scale": 0.008481940254569054
            }
        ],
        "571": [
            {
                "bitwidth": 8,
                "max": 0.904962956905365,
                "min": -1.0673922300338745,
                "offset": 138,
                "scale": 0.007734726183116436
            }
        ],
        "859": [
            {
                "bitwidth": 8,
                "max": 0.9330134391784668,
                "min": -1.2298812866210938,
                "offset": 145,
                "scale": 0.008481940254569054
            }
        ],
        "576": [
            {
                "bitwidth": 8,
                "max": 0.904962956905365,
                "min": -1.0673922300338745,
                "offset": 138,
                "scale": 0.007734726183116436
            }
        ],
        "864": [
            {
                "bitwidth": 8,
                "max": 0.9330134391784668,
                "min": -1.2298812866210938,
                "offset": 145,
                "scale": 0.008481940254569054
            }
        ],
        "577": [
            {
                "bitwidth": 8,
                "max": 3.8207106590270996,
                "min": -4.036396026611328,
                "offset": 131,
                "scale": 0.030812183395028114
            }
        ],
        "865": [
            {
                "bitwidth": 8,
                "max": 3.51605486869812,
                "min": -3.434286117553711,
                "offset": 126,
                "scale": 0.02725623920559883
            }
        ],
        "1365": [
            {
                "bitwidth": 8,
                "max": 5.001500606536865,
                "min": -5.201560974121094,
                "offset": 130,
                "scale": 0.04001200571656227
            }
        ],
        "1533": [
            {
                "bitwidth": 8,
                "max": 4.671054363250732,
                "min": -5.172903537750244,
                "offset": 134,
                "scale": 0.038603756576776505
            }
        ],
        "1368": [
            {
                "bitwidth": 8,
                "max": 8.136421203613281,
                "min": -7.008012294769287,
                "offset": 118,
                "scale": 0.059389933943748474
            }
        ],
        "1536": [
            {
                "bitwidth": 8,
                "max": 8.219409942626953,
                "min": -6.43757963180542,
                "offset": 112,
                "scale": 0.057478390634059906
            }
        ],
        "582": [
            {
                "bitwidth": 8,
                "max": 8.136421203613281,
                "min": -7.008012294769287,
                "offset": 118,
                "scale": 0.059389933943748474
            }
        ],
        "870": [
            {
                "bitwidth": 8,
                "max": 8.219409942626953,
                "min": -6.43757963180542,
                "offset": 112,
                "scale": 0.057478390634059906
            }
        ],
        "587": [
            {
                "bitwidth": 8,
                "max": 10.58635425567627,
                "min": -8.160314559936523,
                "offset": 111,
                "scale": 0.073516346514225
            }
        ],
        "875": [
            {
                "bitwidth": 8,
                "max": 10.878020286560059,
                "min": -8.121261596679688,
                "offset": 109,
                "scale": 0.07450699061155319
            }
        ],
        "1377": [
            {
                "bitwidth": 8,
                "max": 3.699721097946167,
                "min": 0.0,
                "offset": 0,
                "scale": 0.014508710242807865
            }
        ],
        "1545": [
            {
                "bitwidth": 8,
                "max": 3.3548810482025146,
                "min": 0.0,
                "offset": 0,
                "scale": 0.013156396336853504
            }
        ],
        "590": [
            {
                "bitwidth": 8,
                "max": 3.699721097946167,
                "min": 0.0,
                "offset": 0,
                "scale": 0.014508710242807865
            }
        ],
        "878": [
            {
                "bitwidth": 8,
                "max": 3.3548810482025146,
                "min": 0.0,
                "offset": 0,
                "scale": 0.013156396336853504
            }
        ],
        "1380": [
            {
                "bitwidth": 8,
                "max": 3.787172794342041,
                "min": 0.0,
                "offset": 0,
                "scale": 0.014851657673716545
            }
        ],
        "1548": [
            {
                "bitwidth": 8,
                "max": 3.4179959297180176,
                "min": 0.0,
                "offset": 0,
                "scale": 0.013403905555605888
            }
        ],
        "593": [
            {
                "bitwidth": 8,
                "max": 3.787172794342041,
                "min": 0.0,
                "offset": 0,
                "scale": 0.014851657673716545
            }
        ],
        "881": [
            {
                "bitwidth": 8,
                "max": 3.4179959297180176,
                "min": 0.0,
                "offset": 0,
                "scale": 0.013403905555605888
            }
        ],
        "594": [
            {
                "bitwidth": 8,
                "max": 3.787172794342041,
                "min": 0.0,
                "offset": 0,
                "scale": 0.014851657673716545
            }
        ],
        "882": [
            {
                "bitwidth": 8,
                "max": 3.4179959297180176,
                "min": 0.0,
                "offset": 0,
                "scale": 0.013403905555605888
            }
        ],
        "597": [
            {
                "bitwidth": 8,
                "max": 1.5026741027832031,
                "min": 0.0,
                "offset": 0,
                "scale": 0.005892839748412371
            }
        ],
        "885": [
            {
                "bitwidth": 8,
                "max": 1.3423359394073486,
                "min": 0.0,
                "offset": 0,
                "scale": 0.005264062434434891
            }
        ],
        "603": [
            {
                "bitwidth": 8,
                "max": 1.5026741027832031,
                "min": 0.0,
                "offset": 0,
                "scale": 0.005892839748412371
            }
        ],
        "891": [
            {
                "bitwidth": 8,
                "max": 1.3423359394073486,
                "min": 0.0,
                "offset": 0,
                "scale": 0.005264062434434891
            }
        ],
        "604": [
            {
                "bitwidth": 8,
                "max": 1.5266079902648926,
                "min": 0.0,
                "offset": 0,
                "scale": 0.005986697971820831
            }
        ],
        "892": [
            {
                "bitwidth": 8,
                "max": 1.6355340480804443,
                "min": 0.0,
                "offset": 0,
                "scale": 0.006413858849555254
            }
        ],
        "605": [
            {
                "bitwidth": 8,
                "max": 1.5266079902648926,
                "min": 0.0,
                "offset": 0,
                "scale": 0.005986697971820831
            }
        ],
        "893": [
            {
                "bitwidth": 8,
                "max": 1.6355340480804443,
                "min": 0.0,
                "offset": 0,
                "scale": 0.006413858849555254
            }
        ],
        "606": [
            {
                "bitwidth": 8,
                "max": 3.659876823425293,
                "min": -1.642785668373108,
                "offset": 79,
                "scale": 0.020794754847884178
            }
        ],
        "894": [
            {
                "bitwidth": 8,
                "max": 3.9579179286956787,
                "min": -1.876007318496704,
                "offset": 82,
                "scale": 0.022878138348460197
            }
        ],
        "618": [
            {
                "bitwidth": 8,
                "max": 3.659876823425293,
                "min": -1.642785668373108,
                "offset": 79,
                "scale": 0.020794754847884178
            }
        ],
        "906": [
            {
                "bitwidth": 8,
                "max": 3.9579179286956787,
                "min": -1.876007318496704,
                "offset": 82,
                "scale": 0.022878138348460197
            }
        ],
        "623": [
            {
                "bitwidth": 8,
                "max": 3.659876823425293,
                "min": -1.642785668373108,
                "offset": 79,
                "scale": 0.020794754847884178
            }
        ],
        "911": [
            {
                "bitwidth": 8,
                "max": 3.9579179286956787,
                "min": -1.876007318496704,
                "offset": 82,
                "scale": 0.022878138348460197
            }
        ],
        "624": [
            {
                "bitwidth": 8,
                "max": 2.9808177947998047,
                "min": 0.0,
                "offset": 0,
                "scale": 0.01168948132544756
            }
        ],
        "912": [
            {
                "bitwidth": 8,
                "max": 2.8423361778259277,
                "min": 0.0,
                "offset": 0,
                "scale": 0.011146415956318378
            }
        ],
        "1383": [
            {
                "bitwidth": 8,
                "max": 4.6927971839904785,
                "min": -3.6173644065856934,
                "offset": 111,
                "scale": 0.03258886933326721
            }
        ],
        "1551": [
            {
                "bitwidth": 8,
                "max": 4.85641622543335,
                "min": -3.743487596511841,
                "offset": 111,
                "scale": 0.03372511267662048
            }
        ],
        "1386": [
            {
                "bitwidth": 8,
                "max": 10.58635425567627,
                "min": -8.160314559936523,
                "offset": 111,
                "scale": 0.073516346514225
            }
        ],
        "1554": [
            {
                "bitwidth": 8,
                "max": 10.878020286560059,
                "min": -8.121261596679688,
                "offset": 109,
                "scale": 0.07450699061155319
            }
        ],
        "629": [
            {
                "bitwidth": 8,
                "max": 10.58635425567627,
                "min": -8.160314559936523,
                "offset": 111,
                "scale": 0.073516346514225
            }
        ],
        "917": [
            {
                "bitwidth": 8,
                "max": 10.878020286560059,
                "min": -8.121261596679688,
                "offset": 109,
                "scale": 0.07450699061155319
            }
        ],
        "630": [
            {
                "bitwidth": 8,
                "max": 10.846667289733887,
                "min": -8.909762382507324,
                "offset": 115,
                "scale": 0.07747619599103928
            }
        ],
        "918": [
            {
                "bitwidth": 8,
                "max": 10.854215621948242,
                "min": -9.058194160461426,
                "offset": 116,
                "scale": 0.07808788120746613
            }
        ],
        "1389": [
            {
                "bitwidth": 8,
                "max": 10.063962936401367,
                "min": 0.0,
                "offset": 0,
                "scale": 0.03946652263402939
            }
        ],
        "1404": [
            {
                "bitwidth": 8,
                "max": 3.8255860805511475,
                "min": -3.5647506713867188,
                "offset": 123,
                "scale": 0.028981713578104973
            }
        ],
        "1557": [
            {
                "bitwidth": 8,
                "max": 10.19393253326416,
                "min": 0.0,
                "offset": 0,
                "scale": 0.03997620567679405
            }
        ],
        "1572": [
            {
                "bitwidth": 8,
                "max": 4.383781909942627,
                "min": -4.281833648681641,
                "offset": 126,
                "scale": 0.03398280590772629
            }
        ],
        "633": [
            {
                "bitwidth": 8,
                "max": 10.063962936401367,
                "min": 0.0,
                "offset": 0,
                "scale": 0.03946652263402939
            }
        ],
        "1407": [
            {
                "bitwidth": 8,
                "max": 6.870792388916016,
                "min": -6.606531143188477,
                "offset": 125,
                "scale": 0.05285225063562393
            }
        ],
        "921": [
            {
                "bitwidth": 8,
                "max": 10.19393253326416,
                "min": 0.0,
                "offset": 0,
                "scale": 0.03997620567679405
            }
        ],
        "1575": [
            {
                "bitwidth": 8,
                "max": 7.163555145263672,
                "min": -6.996960639953613,
                "offset": 126,
                "scale": 0.05553143471479416
            }
        ],
        "1392": [
            {
                "bitwidth": 8,
                "max": 12.4547758102417,
                "min": 0.0,
                "offset": 0,
                "scale": 0.048842258751392365
            }
        ],
        "1560": [
            {
                "bitwidth": 8,
                "max": 12.342477798461914,
                "min": 0.0,
                "offset": 0,
                "scale": 0.04840187355875969
            }
        ],
        "636": [
            {
                "bitwidth": 8,
                "max": 12.4547758102417,
                "min": 0.0,
                "offset": 0,
                "scale": 0.048842258751392365
            }
        ],
        "924": [
            {
                "bitwidth": 8,
                "max": 12.342477798461914,
                "min": 0.0,
                "offset": 0,
                "scale": 0.04840187355875969
            }
        ],
        "637": [
            {
                "bitwidth": 8,
                "max": 12.4547758102417,
                "min": 0.0,
                "offset": 0,
                "scale": 0.048842258751392365
            }
        ],
        "925": [
            {
                "bitwidth": 8,
                "max": 12.342477798461914,
                "min": 0.0,
                "offset": 0,
                "scale": 0.04840187355875969
            }
        ],
        "1395": [
            {
                "bitwidth": 8,
                "max": 8.376813888549805,
                "min": -8.576261520385742,
                "offset": 129,
                "scale": 0.06648264825344086
            }
        ],
        "1563": [
            {
                "bitwidth": 8,
                "max": 7.575464725494385,
                "min": -9.077496528625488,
                "offset": 139,
                "scale": 0.06530573219060898
            }
        ],
        "1398": [
            {
                "bitwidth": 8,
                "max": 6.772078514099121,
                "min": -6.614588260650635,
                "offset": 126,
                "scale": 0.05249673128128052
            }
        ],
        "1566": [
            {
                "bitwidth": 8,
                "max": 7.486840724945068,
                "min": -7.42834997177124,
                "offset": 127,
                "scale": 0.05849094316363335
            }
        ],
        "1401": [
            {
                "bitwidth": 8,
                "max": 6.870792388916016,
                "min": -6.606531143188477,
                "offset": 125,
                "scale": 0.05285225063562393
            }
        ],
        "1569": [
            {
                "bitwidth": 8,
                "max": 7.163555145263672,
                "min": -6.996960639953613,
                "offset": 126,
                "scale": 0.05553143471479416
            }
        ],
        "644": [
            {
                "bitwidth": 8,
                "max": 6.870792388916016,
                "min": -6.606531143188477,
                "offset": 125,
                "scale": 0.05285225063562393
            }
        ],
        "932": [
            {
                "bitwidth": 8,
                "max": 7.163555145263672,
                "min": -6.996960639953613,
                "offset": 126,
                "scale": 0.05553143471479416
            }
        ],
        "649": [
            {
                "bitwidth": 8,
                "max": 8.310912132263184,
                "min": -8.508790969848633,
                "offset": 129,
                "scale": 0.0659596174955368
            }
        ],
        "937": [
            {
                "bitwidth": 8,
                "max": 8.788623809814453,
                "min": -8.997876167297363,
                "offset": 129,
                "scale": 0.06975097954273224
            }
        ],
        "1410": [
            {
                "bitwidth": 8,
                "max": 5.760838031768799,
                "min": 0.0,
                "offset": 0,
                "scale": 0.022591521963477135
            }
        ],
        "1578": [
            {
                "bitwidth": 8,
                "max": 5.585198879241943,
                "min": 0.0,
                "offset": 0,
                "scale": 0.021902740001678467
            }
        ],
        "652": [
            {
                "bitwidth": 8,
                "max": 5.760838031768799,
                "min": 0.0,
                "offset": 0,
                "scale": 0.022591521963477135
            }
        ],
        "940": [
            {
                "bitwidth": 8,
                "max": 5.585198879241943,
                "min": 0.0,
                "offset": 0,
                "scale": 0.021902740001678467
            }
        ],
        "1413": [
            {
                "bitwidth": 8,
                "max": 6.401199817657471,
                "min": 0.0,
                "offset": 0,
                "scale": 0.02510274387896061
            }
        ],
        "1581": [
            {
                "bitwidth": 8,
                "max": 6.17714786529541,
                "min": 0.0,
                "offset": 0,
                "scale": 0.024224109947681427
            }
        ],
        "655": [
            {
                "bitwidth": 8,
                "max": 6.401199817657471,
                "min": 0.0,
                "offset": 0,
                "scale": 0.02510274387896061
            }
        ],
        "943": [
            {
                "bitwidth": 8,
                "max": 6.17714786529541,
                "min": 0.0,
                "offset": 0,
                "scale": 0.024224109947681427
            }
        ],
        "656": [
            {
                "bitwidth": 8,
                "max": 6.401199817657471,
                "min": 0.0,
                "offset": 0,
                "scale": 0.02510274387896061
            }
        ],
        "944": [
            {
                "bitwidth": 8,
                "max": 6.17714786529541,
                "min": 0.0,
                "offset": 0,
                "scale": 0.024224109947681427
            }
        ],
        "1416": [
            {
                "bitwidth": 8,
                "max": 3.2526707649230957,
                "min": -4.023040294647217,
                "offset": 141,
                "scale": 0.028532199561595917
            }
        ],
        "1584": [
            {
                "bitwidth": 8,
                "max": 3.653542995452881,
                "min": -4.175477504730225,
                "offset": 136,
                "scale": 0.03070204146206379
            }
        ],
        "1419": [
            {
                "bitwidth": 8,
                "max": 8.310912132263184,
                "min": -8.508790969848633,
                "offset": 129,
                "scale": 0.0659596174955368
            }
        ],
        "1587": [
            {
                "bitwidth": 8,
                "max": 8.788623809814453,
                "min": -8.997876167297363,
                "offset": 129,
                "scale": 0.06975097954273224
            }
        ],
        "661": [
            {
                "bitwidth": 8,
                "max": 8.310912132263184,
                "min": -8.508790969848633,
                "offset": 129,
                "scale": 0.0659596174955368
            }
        ],
        "949": [
            {
                "bitwidth": 8,
                "max": 8.788623809814453,
                "min": -8.997876167297363,
                "offset": 129,
                "scale": 0.06975097954273224
            }
        ],
        "662": [
            {
                "bitwidth": 8,
                "max": 9.20781135559082,
                "min": -9.881553649902344,
                "offset": 132,
                "scale": 0.07486025243997574
            }
        ],
        "950": [
            {
                "bitwidth": 8,
                "max": 9.682992935180664,
                "min": -10.0703125,
                "offset": 130,
                "scale": 0.07746393978595734
            }
        ],
        "1422": [
            {
                "bitwidth": 8,
                "max": 4.42764949798584,
                "min": 0.0,
                "offset": 0,
                "scale": 0.017363332211971283
            }
        ],
        "1590": [
            {
                "bitwidth": 8,
                "max": 4.519218444824219,
                "min": 0.0,
                "offset": 0,
                "scale": 0.01772242598235607
            }
        ],
        "665": [
            {
                "bitwidth": 8,
                "max": 4.42764949798584,
                "min": 0.0,
                "offset": 0,
                "scale": 0.017363332211971283
            }
        ],
        "953": [
            {
                "bitwidth": 8,
                "max": 4.519218444824219,
                "min": 0.0,
                "offset": 0,
                "scale": 0.01772242598235607
            }
        ],
        "1425": [
            {
                "bitwidth": 8,
                "max": 5.314450740814209,
                "min": 0.0,
                "offset": 0,
                "scale": 0.02084098383784294
            }
        ],
        "1593": [
            {
                "bitwidth": 8,
                "max": 5.44748067855835,
                "min": 0.0,
                "offset": 0,
                "scale": 0.02136266976594925
            }
        ],
        "668": [
            {
                "bitwidth": 8,
                "max": 5.314450740814209,
                "min": 0.0,
                "offset": 0,
                "scale": 0.02084098383784294
            }
        ],
        "956": [
            {
                "bitwidth": 8,
                "max": 5.44748067855835,
                "min": 0.0,
                "offset": 0,
                "scale": 0.02136266976594925
            }
        ],
        "669": [
            {
                "bitwidth": 8,
                "max": 5.314450740814209,
                "min": 0.0,
                "offset": 0,
                "scale": 0.02084098383784294
            }
        ],
        "957": [
            {
                "bitwidth": 8,
                "max": 5.44748067855835,
                "min": 0.0,
                "offset": 0,
                "scale": 0.02136266976594925
            }
        ],
        "1428": [
            {
                "bitwidth": 8,
                "max": 3.706562042236328,
                "min": -3.243241786956787,
                "offset": 119,
                "scale": 0.02725413255393505
            }
        ],
        "1596": [
            {
                "bitwidth": 8,
                "max": 3.812228202819824,
                "min": -3.782445192337036,
                "offset": 127,
                "scale": 0.029783032834529877
            }
        ],
        "1431": [
            {
                "bitwidth": 8,
                "max": 9.20781135559082,
                "min": -9.881553649902344,
                "offset": 132,
                "scale": 0.07486025243997574
            }
        ],
        "1599": [
            {
                "bitwidth": 8,
                "max": 9.682992935180664,
                "min": -10.0703125,
                "offset": 130,
                "scale": 0.07746393978595734
            }
        ],
        "674": [
            {
                "bitwidth": 8,
                "max": 9.20781135559082,
                "min": -9.881553649902344,
                "offset": 132,
                "scale": 0.07486025243997574
            }
        ],
        "962": [
            {
                "bitwidth": 8,
                "max": 9.682992935180664,
                "min": -10.0703125,
                "offset": 130,
                "scale": 0.07746393978595734
            }
        ],
        "675": [
            {
                "bitwidth": 8,
                "max": 10.055824279785156,
                "min": -10.458057403564453,
                "offset": 130,
                "scale": 0.08044659346342087
            }
        ],
        "963": [
            {
                "bitwidth": 8,
                "max": 10.468332290649414,
                "min": -10.386548042297363,
                "offset": 127,
                "scale": 0.08178384602069855
            }
        ],
        "1434": [
            {
                "bitwidth": 8,
                "max": 5.098503112792969,
                "min": 0.0,
                "offset": 0,
                "scale": 0.019994130358099937
            }
        ],
        "1602": [
            {
                "bitwidth": 8,
                "max": 5.6176228523254395,
                "min": 0.0,
                "offset": 0,
                "scale": 0.022029893472790718
            }
        ],
        "678": [
            {
                "bitwidth": 8,
                "max": 5.098503112792969,
                "min": 0.0,
                "offset": 0,
                "scale": 0.019994130358099937
            }
        ],
        "966": [
            {
                "bitwidth": 8,
                "max": 5.6176228523254395,
                "min": 0.0,
                "offset": 0,
                "scale": 0.022029893472790718
            }
        ],
        "1437": [
            {
                "bitwidth": 8,
                "max": 5.740153789520264,
                "min": 0.0,
                "offset": 0,
                "scale": 0.022510407492518425
            }
        ],
        "1605": [
            {
                "bitwidth": 8,
                "max": 5.681480407714844,
                "min": 0.0,
                "offset": 0,
                "scale": 0.022280314937233925
            }
        ],
        "681": [
            {
                "bitwidth": 8,
                "max": 5.740153789520264,
                "min": 0.0,
                "offset": 0,
                "scale": 0.022510407492518425
            }
        ],
        "969": [
            {
                "bitwidth": 8,
                "max": 5.681480407714844,
                "min": 0.0,
                "offset": 0,
                "scale": 0.022280314937233925
            }
        ],
        "682": [
            {
                "bitwidth": 8,
                "max": 5.740153789520264,
                "min": 0.0,
                "offset": 0,
                "scale": 0.022510407492518425
            }
        ],
        "970": [
            {
                "bitwidth": 8,
                "max": 5.681480407714844,
                "min": 0.0,
                "offset": 0,
                "scale": 0.022280314937233925
            }
        ],
        "1440": [
            {
                "bitwidth": 8,
                "max": 4.173147201538086,
                "min": -5.244131565093994,
                "offset": 142,
                "scale": 0.03693050518631935
            }
        ],
        "1608": [
            {
                "bitwidth": 8,
                "max": 4.291606426239014,
                "min": -5.5674896240234375,
                "offset": 144,
                "scale": 0.038663122802972794
            }
        ],
        "1443": [
            {
                "bitwidth": 8,
                "max": 10.055824279785156,
                "min": -10.458057403564453,
                "offset": 130,
                "scale": 0.08044659346342087
            }
        ],
        "1611": [
            {
                "bitwidth": 8,
                "max": 10.468332290649414,
                "min": -10.386548042297363,
                "offset": 127,
                "scale": 0.08178384602069855
            }
        ],
        "687": [
            {
                "bitwidth": 8,
                "max": 10.055824279785156,
                "min": -10.458057403564453,
                "offset": 130,
                "scale": 0.08044659346342087
            }
        ],
        "975": [
            {
                "bitwidth": 8,
                "max": 10.468332290649414,
                "min": -10.386548042297363,
                "offset": 127,
                "scale": 0.08178384602069855
            }
        ],
        "688": [
            {
                "bitwidth": 8,
                "max": 11.219615936279297,
                "min": -11.30795955657959,
                "offset": 128,
                "scale": 0.08834343403577805
            }
        ],
        "976": [
            {
                "bitwidth": 8,
                "max": 11.530688285827637,
                "min": -11.087200164794922,
                "offset": 125,
                "scale": 0.08869760483503342
            }
        ],
        "1446": [
            {
                "bitwidth": 8,
                "max": 3.2938826084136963,
                "min": 0.0,
                "offset": 0,
                "scale": 0.012917187064886093
            }
        ],
        "1458": [
            {
                "bitwidth": 8,
                "max": 4.715391159057617,
                "min": -5.474649429321289,
                "offset": 137,
                "scale": 0.039960943162441254
            }
        ],
        "1614": [
            {
                "bitwidth": 8,
                "max": 2.858459234237671,
                "min": 0.0,
                "offset": 0,
                "scale": 0.011209644377231598
            }
        ],
        "1626": [
            {
                "bitwidth": 8,
                "max": 4.714154243469238,
                "min": -5.303423881530762,
                "offset": 135,
                "scale": 0.03928462043404579
            }
        ],
        "691": [
            {
                "bitwidth": 8,
                "max": 3.2938826084136963,
                "min": 0.0,
                "offset": 0,
                "scale": 0.012917187064886093
            }
        ],
        "1461": [
            {
                "bitwidth": 8,
                "max": 6.096889972686768,
                "min": -6.751927852630615,
                "offset": 134,
                "scale": 0.05038752034306526
            }
        ],
        "979": [
            {
                "bitwidth": 8,
                "max": 2.858459234237671,
                "min": 0.0,
                "offset": 0,
                "scale": 0.011209644377231598
            }
        ],
        "1629": [
            {
                "bitwidth": 8,
                "max": 6.023337364196777,
                "min": -6.363364219665527,
                "offset": 131,
                "scale": 0.048575300723314285
            }
        ],
        "1449": [
            {
                "bitwidth": 8,
                "max": 4.565280914306641,
                "min": 0.0,
                "offset": 0,
                "scale": 0.01790306158363819
            }
        ],
        "1617": [
            {
                "bitwidth": 8,
                "max": 4.215108394622803,
                "min": 0.0,
                "offset": 0,
                "scale": 0.016529837623238564
            }
        ],
        "694": [
            {
                "bitwidth": 8,
                "max": 4.565280914306641,
                "min": 0.0,
                "offset": 0,
                "scale": 0.01790306158363819
            }
        ],
        "982": [
            {
                "bitwidth": 8,
                "max": 4.215108394622803,
                "min": 0.0,
                "offset": 0,
                "scale": 0.016529837623238564
            }
        ],
        "695": [
            {
                "bitwidth": 8,
                "max": 4.565280914306641,
                "min": 0.0,
                "offset": 0,
                "scale": 0.01790306158363819
            }
        ],
        "983": [
            {
                "bitwidth": 8,
                "max": 4.215108394622803,
                "min": 0.0,
                "offset": 0,
                "scale": 0.016529837623238564
            }
        ],
        "698": [
            {
                "bitwidth": 8,
                "max": 0.9888493418693542,
                "min": 0.0,
                "offset": 0,
                "scale": 0.003877840470522642
            }
        ],
        "986": [
            {
                "bitwidth": 8,
                "max": 0.8484693169593811,
                "min": 0.0,
                "offset": 0,
                "scale": 0.0033273305743932724
            }
        ],
        "704": [
            {
                "bitwidth": 8,
                "max": 0.9888493418693542,
                "min": 0.0,
                "offset": 0,
                "scale": 0.003877840470522642
            }
        ],
        "992": [
            {
                "bitwidth": 8,
                "max": 0.8484693169593811,
                "min": 0.0,
                "offset": 0,
                "scale": 0.0033273305743932724
            }
        ],
        "705": [
            {
                "bitwidth": 8,
                "max": 2.5233840942382812,
                "min": 0.0,
                "offset": 0,
                "scale": 0.009895623661577702
            }
        ],
        "993": [
            {
                "bitwidth": 8,
                "max": 1.8439922332763672,
                "min": 0.0,
                "offset": 0,
                "scale": 0.007231342140585184
            }
        ],
        "706": [
            {
                "bitwidth": 8,
                "max": 2.5233840942382812,
                "min": 0.0,
                "offset": 0,
                "scale": 0.009895623661577702
            }
        ],
        "994": [
            {
                "bitwidth": 8,
                "max": 1.8439922332763672,
                "min": 0.0,
                "offset": 0,
                "scale": 0.007231342140585184
            }
        ],
        "707": [
            {
                "bitwidth": 8,
                "max": 4.854235649108887,
                "min": -3.236157178878784,
                "offset": 102,
                "scale": 0.031727030873298645
            }
        ],
        "995": [
            {
                "bitwidth": 8,
                "max": 3.9493672847747803,
                "min": -2.7200942039489746,
                "offset": 104,
                "scale": 0.02615475095808506
            }
        ],
        "719": [
            {
                "bitwidth": 8,
                "max": 4.854235649108887,
                "min": -3.236157178878784,
                "offset": 102,
                "scale": 0.031727030873298645
            }
        ],
        "1007": [
            {
                "bitwidth": 8,
                "max": 3.9493672847747803,
                "min": -2.7200942039489746,
                "offset": 104,
                "scale": 0.02615475095808506
            }
        ],
        "724": [
            {
                "bitwidth": 8,
                "max": 4.854235649108887,
                "min": -3.236157178878784,
                "offset": 102,
                "scale": 0.031727030873298645
            }
        ],
        "1012": [
            {
                "bitwidth": 8,
                "max": 3.9493672847747803,
                "min": -2.7200942039489746,
                "offset": 104,
                "scale": 0.02615475095808506
            }
        ],
        "725": [
            {
                "bitwidth": 8,
                "max": 3.115252733230591,
                "min": 0.0,
                "offset": 0,
                "scale": 0.012216676957905293
            }
        ],
        "1013": [
            {
                "bitwidth": 8,
                "max": 2.7402706146240234,
                "min": 0.0,
                "offset": 0,
                "scale": 0.010746159590780735
            }
        ],
        "1452": [
            {
                "bitwidth": 8,
                "max": 5.239900588989258,
                "min": -4.304203987121582,
                "offset": 115,
                "scale": 0.037427861243486404
            }
        ],
        "1620": [
            {
                "bitwidth": 8,
                "max": 5.944770336151123,
                "min": -5.1203131675720215,
                "offset": 118,
                "scale": 0.04339248314499855
            }
        ],
        "1455": [
            {
                "bitwidth": 8,
                "max": 6.096889972686768,
                "min": -6.751927852630615,
                "offset": 134,
                "scale": 0.05038752034306526
            }
        ],
        "1623": [
            {
                "bitwidth": 8,
                "max": 6.023337364196777,
                "min": -6.363364219665527,
                "offset": 131,
                "scale": 0.048575300723314285
            }
        ],
        "730": [
            {
                "bitwidth": 8,
                "max": 6.096889972686768,
                "min": -6.751927852630615,
                "offset": 134,
                "scale": 0.05038752034306526
            }
        ],
        "1018": [
            {
                "bitwidth": 8,
                "max": 6.023337364196777,
                "min": -6.363364219665527,
                "offset": 131,
                "scale": 0.048575300723314285
            }
        ],
        "735": [
            {
                "bitwidth": 8,
                "max": 9.057296752929688,
                "min": -8.573318481445312,
                "offset": 124,
                "scale": 0.06913966685533524
            }
        ],
        "1023": [
            {
                "bitwidth": 8,
                "max": 8.893447875976562,
                "min": -8.287075996398926,
                "offset": 123,
                "scale": 0.06737460196018219
            }
        ],
        "1464": [
            {
                "bitwidth": 8,
                "max": 4.88308048248291,
                "min": 0.0,
                "offset": 0,
                "scale": 0.019149335101246834
            }
        ],
        "1632": [
            {
                "bitwidth": 8,
                "max": 3.7947046756744385,
                "min": 0.0,
                "offset": 0,
                "scale": 0.014881194569170475
            }
        ],
        "738": [
            {
                "bitwidth": 8,
                "max": 4.88308048248291,
                "min": 0.0,
                "offset": 0,
                "scale": 0.019149335101246834
            }
        ],
        "1026": [
            {
                "bitwidth": 8,
                "max": 3.7947046756744385,
                "min": 0.0,
                "offset": 0,
                "scale": 0.014881194569170475
            }
        ],
        "1467": [
            {
                "bitwidth": 8,
                "max": 5.699942588806152,
                "min": 0.0,
                "offset": 0,
                "scale": 0.022352715954184532
            }
        ],
        "1635": [
            {
                "bitwidth": 8,
                "max": 5.360939979553223,
                "min": 0.0,
                "offset": 0,
                "scale": 0.02102329395711422
            }
        ],
        "741": [
            {
                "bitwidth": 8,
                "max": 5.699942588806152,
                "min": 0.0,
                "offset": 0,
                "scale": 0.022352715954184532
            }
        ],
        "1029": [
            {
                "bitwidth": 8,
                "max": 5.360939979553223,
                "min": 0.0,
                "offset": 0,
                "scale": 0.02102329395711422
            }
        ],
        "742": [
            {
                "bitwidth": 8,
                "max": 5.699942588806152,
                "min": 0.0,
                "offset": 0,
                "scale": 0.022352715954184532
            }
        ],
        "1030": [
            {
                "bitwidth": 8,
                "max": 5.360939979553223,
                "min": 0.0,
                "offset": 0,
                "scale": 0.02102329395711422
            }
        ],
        "745": [
            {
                "bitwidth": 8,
                "max": 1.0536367893218994,
                "min": 0.0,
                "offset": 0,
                "scale": 0.004131908994168043
            }
        ],
        "1033": [
            {
                "bitwidth": 8,
                "max": 0.9190494418144226,
                "min": 0.0,
                "offset": 0,
                "scale": 0.003604115452617407
            }
        ],
        "751": [
            {
                "bitwidth": 8,
                "max": 1.0536367893218994,
                "min": 0.0,
                "offset": 0,
                "scale": 0.004131908994168043
            }
        ],
        "1039": [
            {
                "bitwidth": 8,
                "max": 0.9190494418144226,
                "min": 0.0,
                "offset": 0,
                "scale": 0.003604115452617407
            }
        ],
        "752": [
            {
                "bitwidth": 8,
                "max": 4.2580461502075195,
                "min": 0.0,
                "offset": 0,
                "scale": 0.016698220744729042
            }
        ],
        "1040": [
            {
                "bitwidth": 8,
                "max": 3.3829636573791504,
                "min": 0.0,
                "offset": 0,
                "scale": 0.01326652429997921
            }
        ],
        "753": [
            {
                "bitwidth": 8,
                "max": 4.2580461502075195,
                "min": 0.0,
                "offset": 0,
                "scale": 0.016698220744729042
            }
        ],
        "1041": [
            {
                "bitwidth": 8,
                "max": 3.3829636573791504,
                "min": 0.0,
                "offset": 0,
                "scale": 0.01326652429997921
            }
        ],
        "754": [
            {
                "bitwidth": 8,
                "max": 6.562796115875244,
                "min": -2.945800542831421,
                "offset": 79,
                "scale": 0.0372886136174202
            }
        ],
        "1042": [
            {
                "bitwidth": 8,
                "max": 5.846616744995117,
                "min": -2.4360904693603516,
                "offset": 75,
                "scale": 0.032481204718351364
            }
        ],
        "766": [
            {
                "bitwidth": 8,
                "max": 6.562796115875244,
                "min": -2.945800542831421,
                "offset": 79,
                "scale": 0.0372886136174202
            }
        ],
        "1054": [
            {
                "bitwidth": 8,
                "max": 5.846616744995117,
                "min": -2.4360904693603516,
                "offset": 75,
                "scale": 0.032481204718351364
            }
        ],
        "771": [
            {
                "bitwidth": 8,
                "max": 6.562796115875244,
                "min": -2.945800542831421,
                "offset": 79,
                "scale": 0.0372886136174202
            }
        ],
        "1059": [
            {
                "bitwidth": 8,
                "max": 5.846616744995117,
                "min": -2.4360904693603516,
                "offset": 75,
                "scale": 0.032481204718351364
            }
        ],
        "772": [
            {
                "bitwidth": 8,
                "max": 3.771059989929199,
                "min": 0.0,
                "offset": 0,
                "scale": 0.014788470230996609
            }
        ],
        "1060": [
            {
                "bitwidth": 8,
                "max": 3.3380517959594727,
                "min": 0.0,
                "offset": 0,
                "scale": 0.013090399093925953
            }
        ],
        "1470": [
            {
                "bitwidth": 8,
                "max": 6.202871799468994,
                "min": -6.058619022369385,
                "offset": 126,
                "scale": 0.04808427765965462
            }
        ],
        "1638": [
            {
                "bitwidth": 8,
                "max": 8.911372184753418,
                "min": -6.547131061553955,
                "offset": 108,
                "scale": 0.060621581971645355
            }
        ],
        "1473": [
            {
                "bitwidth": 8,
                "max": 9.057296752929688,
                "min": -8.573318481445312,
                "offset": 124,
                "scale": 0.06913966685533524
            }
        ],
        "1641": [
            {
                "bitwidth": 8,
                "max": 8.893447875976562,
                "min": -8.287075996398926,
                "offset": 123,
                "scale": 0.06737460196018219
            }
        ],
        "777": [
            {
                "bitwidth": 8,
                "max": 9.057296752929688,
                "min": -8.573318481445312,
                "offset": 124,
                "scale": 0.06913966685533524
            }
        ],
        "1065": [
            {
                "bitwidth": 8,
                "max": 8.893447875976562,
                "min": -8.287075996398926,
                "offset": 123,
                "scale": 0.06737460196018219
            }
        ],
        "778": [
            {
                "bitwidth": 8,
                "max": 10.463191986083984,
                "min": -10.060761451721191,
                "offset": 125,
                "scale": 0.08048608899116516
            }
        ],
        "1066": [
            {
                "bitwidth": 8,
                "max": 11.840075492858887,
                "min": -10.691411972045898,
                "offset": 121,
                "scale": 0.08835877478122711
            }
        ],
        "1067": [
            {
                "bitwidth": 8,
                "max": 13.644200325012207,
                "min": -14.642557144165039,
                "offset": 132,
                "scale": 0.11092846095561981
            }
        ],
        "1075": [
            {
                "bitwidth": 8,
                "max": 15.956914901733398,
                "min": -13.743911743164062,
                "offset": 118,
                "scale": 0.11647383123636246
            }
        ],
        "1644": [
            {
                "bitwidth": 8,
                "max": 5.216760635375977,
                "min": 0.0,
                "offset": 0,
                "scale": 0.020457884296774864
            }
        ],
        "1650": [
            {
                "bitwidth": 8,
                "max": 5.234453201293945,
                "min": 0.0,
                "offset": 0,
                "scale": 0.020527267828583717
            }
        ],
        "1070": [
            {
                "bitwidth": 8,
                "max": 5.216760635375977,
                "min": 0.0,
                "offset": 0,
                "scale": 0.020457884296774864
            }
        ],
        "1078": [
            {
                "bitwidth": 8,
                "max": 5.234453201293945,
                "min": 0.0,
                "offset": 0,
                "scale": 0.020527267828583717
            }
        ],
        "1071": [
            {
                "bitwidth": 8,
                "max": 8.644518852233887,
                "min": -7.3290486335754395,
                "offset": 117,
                "scale": 0.062641441822052
            }
        ],
        "1079": [
            {
                "bitwidth": 8,
                "max": 9.587806701660156,
                "min": -8.001335144042969,
                "offset": 116,
                "scale": 0.06897702813148499
            }
        ],
        "1647": [
            {
                "bitwidth": 8,
                "max": 1.641284704208374,
                "min": -0.820642352104187,
                "offset": 85,
                "scale": 0.009654616005718708
            }
        ],
        "1653": [
            {
                "bitwidth": 8,
                "max": 3.322230577468872,
                "min": -0.4938450753688812,
                "offset": 33,
                "scale": 0.014965002425014973
            }
        ],
        "1074": [
            {
                "bitwidth": 8,
                "max": 1.641284704208374,
                "min": -0.820642352104187,
                "offset": 85,
                "scale": 0.009654616005718708
            }
        ],
        "1082": [
            {
                "bitwidth": 8,
                "max": 3.322230577468872,
                "min": -0.4938450753688812,
                "offset": 33,
                "scale": 0.014965002425014973
            }
        ],
        "1083": [
            {
                "bitwidth": 8,
                "max": 1.582045078277588,
                "min": -0.6468029618263245,
                "offset": 74,
                "scale": 0.008740580640733242
            }
        ],
        "1084": [
            {
                "bitwidth": 8,
                "max": 3.280113935470581,
                "min": -0.4539443254470825,
                "offset": 31,
                "scale": 0.014643365517258644
            }
        ],
        "1103": [
            {
                "bitwidth": 8,
                "max": 1.582045078277588,
                "min": -0.6468029618263245,
                "offset": 74,
                "scale": 0.008740580640733242
            }
        ],
        "1129": [
            {
                "bitwidth": 8,
                "max": 3.280113935470581,
                "min": -0.4539443254470825,
                "offset": 31,
                "scale": 0.014643365517258644
            }
        ],
        "1104": [
            {
                "bitwidth": 8,
                "max": 1.582045078277588,
                "min": -0.6468029618263245,
                "offset": 74,
                "scale": 0.008740580640733242
            }
        ],
        "1112": [
            {
                "bitwidth": 8,
                "max": 1.582045078277588,
                "min": -0.6468029618263245,
                "offset": 74,
                "scale": 0.008740580640733242
            }
        ],
        "1130": [
            {
                "bitwidth": 8,
                "max": 3.280113935470581,
                "min": -0.4539443254470825,
                "offset": 31,
                "scale": 0.014643365517258644
            }
        ],
        "1138": [
            {
                "bitwidth": 8,
                "max": 3.280113935470581,
                "min": -0.4539443254470825,
                "offset": 31,
                "scale": 0.014643365517258644
            }
        ],
        "1184": [
            {
                "bitwidth": 8,
                "max": 5.738182544708252,
                "min": -5.100606918334961,
                "offset": 120,
                "scale": 0.04250505566596985
            }
        ],
        "1185": [
            {
                "bitwidth": 8,
                "max": 6.236018657684326,
                "min": -5.287059307098389,
                "offset": 117,
                "scale": 0.0451885424554348
            }
        ],
        "1187": [
            {
                "bitwidth": 8,
                "max": 9.142215728759766,
                "min": -7.509676933288574,
                "offset": 115,
                "scale": 0.06530153751373291
            }
        ],
        "1188": [
            {
                "bitwidth": 8,
                "max": 9.503150939941406,
                "min": -7.683398723602295,
                "offset": 114,
                "scale": 0.06739823520183563
            }
        ],
        "1181": [
            {
                "bitwidth": 8,
                "max": 5.796250820159912,
                "min": -12.679298400878906,
                "offset": 175,
                "scale": 0.07245313376188278
            }
        ],
        "1182": [
            {
                "bitwidth": 8,
                "max": 5.935272216796875,
                "min": -13.97912883758545,
                "offset": 179,
                "scale": 0.0780956894159317
            }
        ],
        "1208": [
            {
                "bitwidth": 8,
                "max": 6.236018657684326,
                "min": -5.287059307098389,
                "offset": 117,
                "scale": 0.0451885424554348
            }
        ],
        "1218": [
            {
                "bitwidth": 8,
                "max": 9.503150939941406,
                "min": -7.683398723602295,
                "offset": 114,
                "scale": 0.06739823520183563
            }
        ],
        "1197": [
            {
                "bitwidth": 8,
                "max": 5.935272216796875,
                "min": -13.97912883758545,
                "offset": 179,
                "scale": 0.0780956894159317
            }
        ],
        "1198": [
            {
                "bitwidth": 8,
                "max": 5.935272216796875,
                "min": -13.97912883758545,
                "offset": 179,
                "scale": 0.0780956894159317
            }
        ],
        "1221": [
            {
                "bitwidth": 8,
                "max": 0.40291255712509155,
                "min": -0.9489651322364807,
                "offset": 179,
                "scale": 0.0053014811128377914
            }
        ],
        "1223": [
            {
                "bitwidth": 8,
                "max": 5.502530574798584,
                "min": -9.585053443908691,
                "offset": 162,
                "scale": 0.05916699767112732
            }
        ],
        "1224": [
            {
                "bitwidth": 8,
                "max": 0.7524219155311584,
                "min": 0.0,
                "offset": 0,
                "scale": 0.002950674155727029
            }
        ],
        "1226": [
            {
                "bitwidth": 8,
                "max": 6.005712509155273,
                "min": -4.855682373046875,
                "offset": 114,
                "scale": 0.04259370639920235
            }
        ],
        "1234": [
            {
                "bitwidth": 8,
                "max": 6.005712509155273,
                "min": -4.855682373046875,
                "offset": 114,
                "scale": 0.04259370639920235
            }
        ],
        "1236": [
            {
                "bitwidth": 8,
                "max": 80.2403335571289,
                "min": -87.47511291503906,
                "offset": 133,
                "scale": 0.6577076315879822
            }
        ],
        "1237": [
            {
                "bitwidth": 8,
                "max": 80.75049591064453,
                "min": -88.03128051757812,
                "offset": 133,
                "scale": 0.6618893146514893
            }
        ],
        "1238": [
            {
                "bitwidth": 8,
                "max": 74.41985321044922,
                "min": -82.41537475585938,
                "offset": 134,
                "scale": 0.615040123462677
            }
        ],
        "1239": [
            {
                "bitwidth": 8,
                "max": 74.41985321044922,
                "min": -82.41537475585938,
                "offset": 134,
                "scale": 0.615040123462677
            }
        ],
        "1255": [
            {
                "bitwidth": 8,
                "max": 74.41985321044922,
                "min": -82.41537475585938,
                "offset": 134,
                "scale": 0.615040123462677
            }
        ],
        "1256": [
            {
                "bitwidth": 8,
                "max": 74.41985321044922,
                "min": -82.41537475585938,
                "offset": 134,
                "scale": 0.615040123462677
            }
        ],
        "1266": [
            {
                "bitwidth": 8,
                "max": 74.41985321044922,
                "min": -82.41537475585938,
                "offset": 134,
                "scale": 0.615040123462677
            }
        ],
        "1267": [
            {
                "bitwidth": 8,
                "max": 230.79478454589844,
                "min": -80.59500885009766,
                "offset": 66,
                "scale": 1.221136450767517
            }
        ],
        "1656": [
            {
                "bitwidth": 8,
                "max": 5.589040756225586,
                "min": 0.0,
                "offset": 0,
                "scale": 0.021917806938290596
            }
        ],
        "1270": [
            {
                "bitwidth": 8,
                "max": 5.589040756225586,
                "min": 0.0,
                "offset": 0,
                "scale": 0.021917806938290596
            }
        ],
        "1271": [
            {
                "bitwidth": 8,
                "max": 5.9078779220581055,
                "min": -6.440555095672607,
                "offset": 133,
                "scale": 0.04842522740364075
            }
        ],
        "1659": [
            {
                "bitwidth": 8,
                "max": 6.133487701416016,
                "min": 0.0,
                "offset": 0,
                "scale": 0.024052893742918968
            }
        ],
        "1274": [
            {
                "bitwidth": 8,
                "max": 6.133487701416016,
                "min": 0.0,
                "offset": 0,
                "scale": 0.024052893742918968
            }
        ],
        "1662": [
            {
                "bitwidth": 8,
                "max": 7.922392845153809,
                "min": 0.0,
                "offset": 0,
                "scale": 0.031068207696080208
            }
        ],
        "1277": [
            {
                "bitwidth": 8,
                "max": 7.922392845153809,
                "min": 0.0,
                "offset": 0,
                "scale": 0.031068207696080208
            }
        ],
        "1665": [
            {
                "bitwidth": 8,
                "max": 6.930845260620117,
                "min": 0.0,
                "offset": 0,
                "scale": 0.027179785072803497
            }
        ],
        "1680": [
            {
                "bitwidth": 8,
                "max": 6.4371256828308105,
                "min": 0.0,
                "offset": 0,
                "scale": 0.02524363063275814
            }
        ],
        "1280": [
            {
                "bitwidth": 8,
                "max": 6.930845260620117,
                "min": 0.0,
                "offset": 0,
                "scale": 0.027179785072803497
            }
        ],
        "1295": [
            {
                "bitwidth": 8,
                "max": 6.4371256828308105,
                "min": 0.0,
                "offset": 0,
                "scale": 0.02524363063275814
            }
        ],
        "1668": [
            {
                "bitwidth": 8,
                "max": 6.410346031188965,
                "min": 0.0,
                "offset": 0,
                "scale": 0.0251386109739542
            }
        ],
        "1683": [
            {
                "bitwidth": 8,
                "max": 8.388737678527832,
                "min": 0.0,
                "offset": 0,
                "scale": 0.03289701044559479
            }
        ],
        "1283": [
            {
                "bitwidth": 8,
                "max": 6.410346031188965,
                "min": 0.0,
                "offset": 0,
                "scale": 0.0251386109739542
            }
        ],
        "1298": [
            {
                "bitwidth": 8,
                "max": 8.388737678527832,
                "min": 0.0,
                "offset": 0,
                "scale": 0.03289701044559479
            }
        ],
        "1671": [
            {
                "bitwidth": 8,
                "max": 6.155500888824463,
                "min": 0.0,
                "offset": 0,
                "scale": 0.024139219895005226
            }
        ],
        "1686": [
            {
                "bitwidth": 8,
                "max": 7.207915782928467,
                "min": 0.0,
                "offset": 0,
                "scale": 0.028266336768865585
            }
        ],
        "1286": [
            {
                "bitwidth": 8,
                "max": 6.155500888824463,
                "min": 0.0,
                "offset": 0,
                "scale": 0.024139219895005226
            }
        ],
        "1301": [
            {
                "bitwidth": 8,
                "max": 7.207915782928467,
                "min": 0.0,
                "offset": 0,
                "scale": 0.028266336768865585
            }
        ],
        "1674": [
            {
                "bitwidth": 8,
                "max": 6.734148025512695,
                "min": 0.0,
                "offset": 0,
                "scale": 0.026408422738313675
            }
        ],
        "1689": [
            {
                "bitwidth": 8,
                "max": 6.772376537322998,
                "min": 0.0,
                "offset": 0,
                "scale": 0.026558339595794678
            }
        ],
        "1289": [
            {
                "bitwidth": 8,
                "max": 6.734148025512695,
                "min": 0.0,
                "offset": 0,
                "scale": 0.026408422738313675
            }
        ],
        "1304": [
            {
                "bitwidth": 8,
                "max": 6.772376537322998,
                "min": 0.0,
                "offset": 0,
                "scale": 0.026558339595794678
            }
        ],
        "1677": [
            {
                "bitwidth": 8,
                "max": 25.750520706176758,
                "min": 0.0,
                "offset": 0,
                "scale": 0.1009824350476265
            }
        ],
        "1692": [
            {
                "bitwidth": 8,
                "max": 26.01172637939453,
                "min": 0.0,
                "offset": 0,
                "scale": 0.10200677067041397
            }
        ],
        "tl_map": [
            {
                "bitwidth": 8,
                "max": 25.750520706176758,
                "min": 0.0,
                "offset": 0,
                "scale": 0.1009824350476265
            }
        ],
        "br_map": [
            {
                "bitwidth": 8,
                "max": 26.01172637939453,
                "min": 0.0,
                "offset": 0,
                "scale": 0.10200677067041397
            }
        ]
    },
    "param_encodings": {
        "1309": [
            {
                "bitwidth": 8,
                "max": 0.7680945992469788,
                "min": -0.7863825559616089,
                "offset": 129,
                "scale": 0.006095988675951958
            }
        ],
        "1477": [
            {
                "bitwidth": 8,
                "max": 0.7680945992469788,
                "min": -0.7863825559616089,
                "offset": 129,
                "scale": 0.006095988675951958
            }
        ],
        "1312": [
            {
                "bitwidth": 8,
                "max": 1.3335775136947632,
                "min": -1.9051107168197632,
                "offset": 150,
                "scale": 0.01270073838531971
            }
        ],
        "1480": [
            {
                "bitwidth": 8,
                "max": 1.3335775136947632,
                "min": -1.9051107168197632,
                "offset": 150,
                "scale": 0.01270073838531971
            }
        ],
        "1315": [
            {
                "bitwidth": 8,
                "max": 2.7441484928131104,
                "min": -2.853914499282837,
                "offset": 130,
                "scale": 0.021953187882900238
            }
        ],
        "1483": [
            {
                "bitwidth": 8,
                "max": 2.7441484928131104,
                "min": -2.853914499282837,
                "offset": 130,
                "scale": 0.021953187882900238
            }
        ],
        "1318": [
            {
                "bitwidth": 8,
                "max": 1.4607986211776733,
                "min": -1.495579481124878,
                "offset": 129,
                "scale": 0.011593639850616455
            }
        ],
        "1486": [
            {
                "bitwidth": 8,
                "max": 1.4607986211776733,
                "min": -1.495579481124878,
                "offset": 129,
                "scale": 0.011593639850616455
            }
        ],
        "1321": [
            {
                "bitwidth": 8,
                "max": 5.8713698387146,
                "min": -7.3781819343566895,
                "offset": 142,
                "scale": 0.05195902660489082
            }
        ],
        "1489": [
            {
                "bitwidth": 8,
                "max": 5.8713698387146,
                "min": -7.3781819343566895,
                "offset": 142,
                "scale": 0.05195902660489082
            }
        ],
        "1324": [
            {
                "bitwidth": 8,
                "max": 1.1648722887039185,
                "min": -1.3524365425109863,
                "offset": 137,
                "scale": 0.009871799498796463
            }
        ],
        "1339": [
            {
                "bitwidth": 8,
                "max": 0.4666588008403778,
                "min": -0.6999881863594055,
                "offset": 153,
                "scale": 0.0045750862918794155
            }
        ],
        "1492": [
            {
                "bitwidth": 8,
                "max": 1.1648722887039185,
                "min": -1.3524365425109863,
                "offset": 137,
                "scale": 0.009871799498796463
            }
        ],
        "1507": [
            {
                "bitwidth": 8,
                "max": 0.4666588008403778,
                "min": -0.6999881863594055,
                "offset": 153,
                "scale": 0.0045750862918794155
            }
        ],
        "1342": [
            {
                "bitwidth": 8,
                "max": 1.0078327655792236,
                "min": -0.8278626203536987,
                "offset": 115,
                "scale": 0.007198805455118418
            }
        ],
        "1510": [
            {
                "bitwidth": 8,
                "max": 1.0078327655792236,
                "min": -0.8278626203536987,
                "offset": 115,
                "scale": 0.007198805455118418
            }
        ],
        "1327": [
            {
                "bitwidth": 8,
                "max": 24.57921600341797,
                "min": -23.633861541748047,
                "offset": 125,
                "scale": 0.1890708953142166
            }
        ],
        "1495": [
            {
                "bitwidth": 8,
                "max": 24.57921600341797,
                "min": -23.633861541748047,
                "offset": 125,
                "scale": 0.1890708953142166
            }
        ],
        "1330": [
            {
                "bitwidth": 8,
                "max": 1.6038662195205688,
                "min": -1.3174614906311035,
                "offset": 115,
                "scale": 0.011456186883151531
            }
        ],
        "1498": [
            {
                "bitwidth": 8,
                "max": 1.6038662195205688,
                "min": -1.3174614906311035,
                "offset": 115,
                "scale": 0.011456186883151531
            }
        ],
        "1333": [
            {
                "bitwidth": 8,
                "max": 0.640875518321991,
                "min": -0.5787010192871094,
                "offset": 121,
                "scale": 0.004782652948051691
            }
        ],
        "1501": [
            {
                "bitwidth": 8,
                "max": 0.640875518321991,
                "min": -0.5787010192871094,
                "offset": 121,
                "scale": 0.004782652948051691
            }
        ],
        "1336": [
            {
                "bitwidth": 8,
                "max": 0.9660641551017761,
                "min": -1.3579580783843994,
                "offset": 149,
                "scale": 0.009113812819123268
            }
        ],
        "1504": [
            {
                "bitwidth": 8,
                "max": 0.9660641551017761,
                "min": -1.3579580783843994,
                "offset": 149,
                "scale": 0.009113812819123268
            }
        ],
        "1345": [
            {
                "bitwidth": 8,
                "max": 0.4834716022014618,
                "min": -0.7371745109558105,
                "offset": 154,
                "scale": 0.004786847624927759
            }
        ],
        "1513": [
            {
                "bitwidth": 8,
                "max": 0.4834716022014618,
                "min": -0.7371745109558105,
                "offset": 154,
                "scale": 0.004786847624927759
            }
        ],
        "1348": [
            {
                "bitwidth": 8,
                "max": 3.1450788974761963,
                "min": -5.76597785949707,
                "offset": 165,
                "scale": 0.03494532033801079
            }
        ],
        "1516": [
            {
                "bitwidth": 8,
                "max": 3.1450788974761963,
                "min": -5.76597785949707,
                "offset": 165,
                "scale": 0.03494532033801079
            }
        ],
        "1351": [
            {
                "bitwidth": 8,
                "max": 0.572659969329834,
                "min": -0.8314582705497742,
                "offset": 151,
                "scale": 0.0055063460022211075
            }
        ],
        "1519": [
            {
                "bitwidth": 8,
                "max": 0.572659969329834,
                "min": -0.8314582705497742,
                "offset": 151,
                "scale": 0.0055063460022211075
            }
        ],
        "1354": [
            {
                "bitwidth": 8,
                "max": 0.5186821222305298,
                "min": -4.2050299644470215,
                "offset": 227,
                "scale": 0.01852436177432537
            }
        ],
        "1522": [
            {
                "bitwidth": 8,
                "max": 0.5186821222305298,
                "min": -4.2050299644470215,
                "offset": 227,
                "scale": 0.01852436177432537
            }
        ],
        "1357": [
            {
                "bitwidth": 8,
                "max": 1.7428452968597412,
                "min": -1.1244163513183594,
                "offset": 100,
                "scale": 0.011244162917137146
            }
        ],
        "1372": [
            {
                "bitwidth": 8,
                "max": 0.2920025587081909,
                "min": -0.6160541772842407,
                "offset": 173,
                "scale": 0.003561006858944893
            }
        ],
        "1525": [
            {
                "bitwidth": 8,
                "max": 1.7428452968597412,
                "min": -1.1244163513183594,
                "offset": 100,
                "scale": 0.011244162917137146
            }
        ],
        "1540": [
            {
                "bitwidth": 8,
                "max": 0.2920025587081909,
                "min": -0.6160541772842407,
                "offset": 173,
                "scale": 0.003561006858944893
            }
        ],
        "1375": [
            {
                "bitwidth": 8,
                "max": 1.014043927192688,
                "min": -1.1054741144180298,
                "offset": 133,
                "scale": 0.008311835117638111
            }
        ],
        "1543": [
            {
                "bitwidth": 8,
                "max": 1.014043927192688,
                "min": -1.1054741144180298,
                "offset": 133,
                "scale": 0.008311835117638111
            }
        ],
        "1360": [
            {
                "bitwidth": 8,
                "max": 26.021745681762695,
                "min": -19.74063491821289,
                "offset": 110,
                "scale": 0.1794603168964386
            }
        ],
        "1528": [
            {
                "bitwidth": 8,
                "max": 26.021745681762695,
                "min": -19.74063491821289,
                "offset": 110,
                "scale": 0.1794603168964386
            }
        ],
        "1363": [
            {
                "bitwidth": 8,
                "max": 9.602712631225586,
                "min": -2.7644171714782715,
                "offset": 57,
                "scale": 0.048498548567295074
            }
        ],
        "1531": [
            {
                "bitwidth": 8,
                "max": 9.602712631225586,
                "min": -2.7644171714782715,
                "offset": 57,
                "scale": 0.048498548567295074
            }
        ],
        "backbone.features.4.conv.2.fc.0.weight_0": [
            {
                "bitwidth": 8,
                "max": 0.6826314330101013,
                "min": -1.6383154392242432,
                "offset": 180,
                "scale": 0.009101752191781998
            }
        ],
        "backbone.features.4.conv.2.fc.0.weight_1": [
            {
                "bitwidth": 8,
                "max": 0.6826314330101013,
                "min": -1.6383154392242432,
                "offset": 180,
                "scale": 0.009101752191781998
            }
        ],
        "backbone.features.4.conv.2.fc.2.weight_0": [
            {
                "bitwidth": 8,
                "max": 0.8809750080108643,
                "min": -0.6683258414268494,
                "offset": 110,
                "scale": 0.006075689569115639
            }
        ],
        "backbone.features.4.conv.2.fc.2.weight_1": [
            {
                "bitwidth": 8,
                "max": 0.8809750080108643,
                "min": -0.6683258414268494,
                "offset": 110,
                "scale": 0.006075689569115639
            }
        ],
        "1366": [
            {
                "bitwidth": 8,
                "max": 0.9843893647193909,
                "min": -1.361585259437561,
                "offset": 148,
                "scale": 0.009199900552630424
            }
        ],
        "1534": [
            {
                "bitwidth": 8,
                "max": 0.9843893647193909,
                "min": -1.361585259437561,
                "offset": 148,
                "scale": 0.009199900552630424
            }
        ],
        "1369": [
            {
                "bitwidth": 8,
                "max": 1.5627498626708984,
                "min": -1.5999581813812256,
                "offset": 129,
                "scale": 0.012402776628732681
            }
        ],
        "1537": [
            {
                "bitwidth": 8,
                "max": 1.5627498626708984,
                "min": -1.5999581813812256,
                "offset": 129,
                "scale": 0.012402776628732681
            }
        ],
        "1378": [
            {
                "bitwidth": 8,
                "max": 0.3113023340702057,
                "min": -0.3671770989894867,
                "offset": 138,
                "scale": 0.0026607036124914885
            }
        ],
        "1546": [
            {
                "bitwidth": 8,
                "max": 0.3113023340702057,
                "min": -0.3671770989894867,
                "offset": 138,
                "scale": 0.0026607036124914885
            }
        ],
        "1381": [
            {
                "bitwidth": 8,
